{
  "version": "1.0",
  "truncation": null,
  "padding": null,
  "added_tokens": [
    {
      "id": 0,
      "content": "<BOS>",
      "single_word": false,
      "lstrip": false,
      "rstrip": false,
      "normalized": false,
      "special": true
    },
    {
      "id": 1,
      "content": "<EOS>",
      "single_word": false,
      "lstrip": false,
      "rstrip": false,
      "normalized": false,
      "special": true
    },
    {
      "id": 2,
      "content": "<UNK>",
      "single_word": false,
      "lstrip": false,
      "rstrip": false,
      "normalized": false,
      "special": true
    }
  ],
  "normalizer": null,
  "pre_tokenizer": {
    "type": "Whitespace"
  },
  "post_processor": null,
  "decoder": null,
  "model": {
    "type": "BPE",
    "dropout": null,
    "unk_token": "<UNK>",
    "continuing_subword_prefix": null,
    "end_of_word_suffix": null,
    "fuse_unk": false,
    "byte_fallback": false,
    "ignore_merges": false,
    "vocab": {
      "<BOS>": 0,
      "<EOS>": 1,
      "<UNK>": 2,
      "&": 3,
      "'": 4,
      "(": 5,
      ")": 6,
      "*": 7,
      ",": 8,
      "-": 9,
      "1": 10,
      "2": 11,
      ":": 12,
      ";": 13,
      "A": 14,
      "B": 15,
      "C": 16,
      "D": 17,
      "E": 18,
      "F": 19,
      "G": 20,
      "H": 21,
      "I": 22,
      "J": 23,
      "K": 24,
      "L": 25,
      "M": 26,
      "N": 27,
      "O": 28,
      "P": 29,
      "Q": 30,
      "R": 31,
      "S": 32,
      "T": 33,
      "U": 34,
      "V": 35,
      "W": 36,
      "X": 37,
      "Y": 38,
      "Z": 39,
      "[": 40,
      "]": 41,
      "_": 42,
      "a": 43,
      "b": 44,
      "c": 45,
      "d": 46,
      "e": 47,
      "f": 48,
      "g": 49,
      "h": 50,
      "i": 51,
      "j": 52,
      "k": 53,
      "l": 54,
      "m": 55,
      "n": 56,
      "o": 57,
      "p": 58,
      "q": 59,
      "r": 60,
      "s": 61,
      "t": 62,
      "u": 63,
      "v": 64,
      "w": 65,
      "x": 66,
      "y": 67,
      "z": 68,
      "À": 69,
      "Æ": 70,
      "Ç": 71,
      "É": 72,
      "à": 73,
      "â": 74,
      "æ": 75,
      "ç": 76,
      "è": 77,
      "é": 78,
      "ê": 79,
      "ë": 80,
      "î": 81,
      "œ": 82,
      "—": 83,
      "‘": 84,
      "’": 85,
      "“": 86,
      "”": 87,
      "…": 88,
      "th": 89,
      "ou": 90,
      "er": 91,
      "in": 92,
      "an": 93,
      "the": 94,
      "or": 95,
      "is": 96,
      "en": 97,
      "ar": 98,
      "at": 99,
      "on": 100,
      "es": 101,
      "ll": 102,
      "and": 103,
      "to": 104,
      "he": 105,
      "st": 106,
      "me": 107,
      "you": 108,
      "of": 109,
      "no": 110,
      "ha": 111,
      "se": 112,
      "re": 113,
      "ve": 114,
      "it": 115,
      "ing": 116,
      "le": 117,
      "wi": 118,
      "be": 119,
      "ch": 120,
      "ce": 121,
      "as": 122,
      "ow": 123,
      "my": 124,
      "ed": 125,
      "hi": 126,
      "for": 127,
      "nd": 128,
      "ld": 129,
      "ay": 130,
      "ere": 131,
      "ir": 132,
      "om": 133,
      "ut": 134,
      "Th": 135,
      "not": 136,
      "gh": 137,
      "li": 138,
      "that": 139,
      "we": 140,
      "ke": 141,
      "de": 142,
      "oo": 143,
      "with": 144,
      "And": 145,
      "our": 146,
      "al": 147,
      "ter": 148,
      "ri": 149,
      "us": 150,
      "wh": 151,
      "ent": 152,
      "your": 153,
      "ad": 154,
      "his": 155,
      "so": 156,
      "et": 157,
      "all": 158,
      "thou": 159,
      "ra": 160,
      "Wh": 161,
      "ther": 162,
      "ro": 163,
      "do": 164,
      "ght": 165,
      "ur": 166,
      "him": 167,
      "ly": 168,
      "have": 169,
      "this": 170,
      "ver": 171,
      "un": 172,
      "lo": 173,
      "ess": 174,
      "ti": 175,
      "am": 176,
      "The": 177,
      "ould": 178,
      "ord": 179,
      "ma": 180,
      "fe": 181,
      "id": 182,
      "will": 183,
      "est": 184,
      "her": 185,
      "are": 186,
      "ain": 187,
      "ood": 188,
      "pe": 189,
      "ck": 190,
      "sha": 191,
      "now": 192,
      "ne": 193,
      "ge": 194,
      "fa": 195,
      "su": 196,
      "ome": 197,
      "thy": 198,
      "end": 199,
      "one": 200,
      "but": 201,
      "man": 202,
      "ard": 203,
      "art": 204,
      "la": 205,
      "pr": 206,
      "To": 207,
      "thee": 208,
      "sh": 209,
      "ru": 210,
      "by": 211,
      "shall": 212,
      "mor": 213,
      "That": 214,
      "ill": 215,
      "con": 216,
      "up": 217,
      "ion": 218,
      "po": 219,
      "go": 220,
      "ight": 221,
      "mo": 222,
      "rom": 223,
      "com": 224,
      "ine": 225,
      "il": 226,
      "ta": 227,
      "But": 228,
      "sel": 229,
      "mu": 230,
      "te": 231,
      "ous": 232,
      "qu": 233,
      "ind": 234,
      "ant": 235,
      "own": 236,
      "ers": 237,
      "ble": 238,
      "bo": 239,
      "if": 240,
      "good": 241,
      "she": 242,
      "out": 243,
      "hich": 244,
      "was": 245,
      "ong": 246,
      "love": 247,
      "wor": 248,
      "from": 249,
      "ry": 250,
      "ct": 251,
      "lord": 252,
      "ak": 253,
      "ven": 254,
      "He": 255,
      "what": 256,
      "ho": 257,
      "En": 258,
      "bl": 259,
      "would": 260,
      "sa": 261,
      "For": 262,
      "more": 263,
      "What": 264,
      "know": 265,
      "ast": 266,
      "ive": 267,
      "them": 268,
      "can": 269,
      "their": 270,
      "ate": 271,
      "let": 272,
      "self": 273,
      "ap": 274,
      "ie": 275,
      "well": 276,
      "come": 277,
      "ence": 278,
      "see": 279,
      "there": 280,
      "they": 281,
      "ath": 282,
      "ul": 283,
      "ep": 284,
      "like": 285,
      "than": 286,
      "ag": 287,
      "ink": 288,
      "ure": 289,
      "fore": 290,
      "say": 291,
      "per": 292,
      "si": 293,
      "ves": 294,
      "then": 295,
      "If": 296,
      "sir": 297,
      "here": 298,
      "You": 299,
      "ave": 300,
      "My": 301,
      "Enter": 302,
      "tru": 303,
      "ish": 304,
      "ith": 305,
      "ance": 306,
      "hath": 307,
      "au": 308,
      "thing": 309,
      "We": 310,
      "spe": 311,
      "ound": 312,
      "pro": 313,
      "reat": 314,
      "ue": 315,
      "too": 316,
      "ook": 317,
      "ple": 318,
      "As": 319,
      "may": 320,
      "way": 321,
      "should": 322,
      "were": 323,
      "did": 324,
      "Be": 325,
      "dis": 326,
      "make": 327,
      "ars": 328,
      "row": 329,
      "upon": 330,
      "sp": 331,
      "some": 332,
      "co": 333,
      "which": 334,
      "must": 335,
      "No": 336,
      "ci": 337,
      "um": 338,
      "men": 339,
      "ity": 340,
      "very": 341,
      "vi": 342,
      "had": 343,
      "di": 344,
      "oun": 345,
      "In": 346,
      "Go": 347,
      "other": 348,
      "word": 349,
      "hon": 350,
      "such": 351,
      "hand": 352,
      "ex": 353,
      "ey": 354,
      "fi": 355,
      "heart": 356,
      "think": 357,
      "day": 358,
      "tion": 359,
      "Thou": 360,
      "ose": 361,
      "when": 362,
      "King": 363,
      "pl": 364,
      "im": 365,
      "ame": 366,
      "This": 367,
      "time": 368,
      "yet": 369,
      "ans": 370,
      "af": 371,
      "again": 372,
      "ise": 373,
      "ness": 374,
      "speak": 375,
      "el": 376,
      "most": 377,
      "llow": 378,
      "ang": 379,
      "ac": 380,
      "swe": 381,
      "tr": 382,
      "fo": 383,
      "fri": 384,
      "urn": 385,
      "ab": 386,
      "these": 387,
      "king": 388,
      "take": 389,
      "any": 390,
      "bre": 391,
      "father": 392,
      "With": 393,
      "Of": 394,
      "So": 395,
      "how": 396,
      "give": 397,
      "mine": 398,
      "Why": 399,
      "age": 400,
      "wo": 401,
      "night": 402,
      "An": 403,
      "ady": 404,
      "des": 405,
      "great": 406,
      "mar": 407,
      "em": 408,
      "land": 409,
      "ces": 410,
      "ful": 411,
      "br": 412,
      "fair": 413,
      "tell": 414,
      "ase": 415,
      "off": 416,
      "ear": 417,
      "gra": 418,
      "where": 419,
      "ince": 420,
      "friend": 421,
      "How": 422,
      "ser": 423,
      "bro": 424,
      "part": 425,
      "ber": 426,
      "ty": 427,
      "There": 428,
      "gn": 429,
      "gent": 430,
      "hear": 431,
      "ts": 432,
      "It": 433,
      "much": 434,
      "hea": 435,
      "ass": 436,
      "ation": 437,
      "str": 438,
      "arm": 439,
      "mis": 440,
      "blood": 441,
      "never": 442,
      "sc": 443,
      "Which": 444,
      "look": 445,
      "ree": 446,
      "und": 447,
      "ies": 448,
      "Let": 449,
      "ull": 450,
      "ort": 451,
      "fl": 452,
      "ment": 453,
      "son": 454,
      "ust": 455,
      "death": 456,
      "tle": 457,
      "honour": 458,
      "less": 459,
      "life": 460,
      "ite": 461,
      "lt": 462,
      "coun": 463,
      "wr": 464,
      "tain": 465,
      "When": 466,
      "ward": 467,
      "ace": 468,
      "Do": 469,
      "By": 470,
      "Come": 471,
      "Is": 472,
      "ever": 473,
      "oul": 474,
      "bet": 475,
      "pre": 476,
      "gentle": 477,
      "mon": 478,
      "ster": 479,
      "red": 480,
      "hast": 481,
      "doth": 482,
      "mer": 483,
      "old": 484,
      "Or": 485,
      "ough": 486,
      "Sir": 487,
      "lie": 488,
      "Where": 489,
      "call": 490,
      "Ex": 491,
      "stand": 492,
      "cour": 493,
      "foo": 494,
      "tend": 495,
      "ouse": 496,
      "pp": 497,
      "Lord": 498,
      "Now": 499,
      "tis": 500,
      "made": 501,
      "unt": 502,
      "fear": 503,
      "ach": 504,
      "orn": 505,
      "sed": 506,
      "God": 507,
      "io": 508,
      "ene": 509,
      "head": 510,
      "wom": 511,
      "true": 512,
      "who": 513,
      "che": 514,
      "ic": 515,
      "heaven": 516,
      "Mar": 517,
      "nor": 518,
      "sweet": 519,
      "ving": 520,
      "new": 521,
      "eyes": 522,
      "hold": 523,
      "US": 524,
      "cannot": 525,
      "gl": 526,
      "uke": 527,
      "ond": 528,
      "been": 529,
      "rown": 530,
      "pri": 531,
      "pla": 532,
      "mad": 533,
      "pray": 534,
      "pt": 535,
      "res": 536,
      "led": 537,
      "Then": 538,
      "world": 539,
      "vo": 540,
      "Here": 541,
      "pres": 542,
      "ba": 543,
      "fort": 544,
      "shi": 545,
      "thought": 546,
      "long": 547,
      "fir": 548,
      "brother": 549,
      "bear": 550,
      "Your": 551,
      "gu": 552,
      "done": 553,
      "ice": 554,
      "turn": 555,
      "ower": 556,
      "down": 557,
      "bra": 558,
      "tri": 559,
      "tra": 560,
      "put": 561,
      "ore": 562,
      "ghter": 563,
      "live": 564,
      "might": 565,
      "two": 566,
      "able": 567,
      "Who": 568,
      "name": 569,
      "war": 570,
      "ds": 571,
      "house": 572,
      "les": 573,
      "noble": 574,
      "away": 575,
      "ign": 576,
      "before": 577,
      "ss": 578,
      "Duke": 579,
      "dy": 580,
      "atter": 581,
      "light": 582,
      "comes": 583,
      "AN": 584,
      "She": 585,
      "kes": 586,
      "set": 587,
      "jo": 588,
      "leave": 589,
      "Fr": 590,
      "Tis": 591,
      "ef": 592,
      "thus": 593,
      "ks": 594,
      "ps": 595,
      "ted": 596,
      "deed": 597,
      "ton": 598,
      "pur": 599,
      "_Ex": 600,
      "Pr": 601,
      "ake": 602,
      "gr": 603,
      "ten": 604,
      "ings": 605,
      "Ca": 606,
      "gi": 607,
      "could": 608,
      "ange": 609,
      "cha": 610,
      "lady": 611,
      "They": 612,
      "His": 613,
      "cau": 614,
      "reas": 615,
      "ye": 616,
      "Sha": 617,
      "soul": 618,
      "into": 619,
      "poor": 620,
      "find": 621,
      "use": 622,
      "show": 623,
      "fool": 624,
      "Ay": 625,
      "wit": 626,
      "being": 627,
      "better": 628,
      "ick": 629,
      "nat": 630,
      "ol": 631,
      "tent": 632,
      "wer": 633,
      "lit": 634,
      "keep": 635,
      "dead": 636,
      "right": 637,
      "ild": 638,
      "both": 639,
      "ft": 640,
      "ese": 641,
      "cl": 642,
      "op": 643,
      "cy": 644,
      "ction": 645,
      "under": 646,
      "many": 647,
      "rest": 648,
      "une": 649,
      "comp": 650,
      "cur": 651,
      "master": 652,
      "ors": 653,
      "full": 654,
      "ins": 655,
      "ng": 656,
      "aughter": 657,
      "dear": 658,
      "whi": 659,
      "ph": 660,
      "still": 661,
      "cause": 662,
      "every": 663,
      "Good": 664,
      "nothing": 665,
      "gri": 666,
      "Will": 667,
      "atch": 668,
      "place": 669,
      "Nor": 670,
      "wife": 671,
      "par": 672,
      "beg": 673,
      "den": 674,
      "Well": 675,
      "tress": 676,
      "ours": 677,
      "daughter": 678,
      "myself": 679,
      "kind": 680,
      "uck": 681,
      "tal": 682,
      "read": 683,
      "woman": 684,
      "face": 685,
      "tong": 686,
      "Than": 687,
      "ield": 688,
      "young": 689,
      "je": 690,
      "till": 691,
      "Ro": 692,
      "OF": 693,
      "comm": 694,
      "fall": 695,
      "its": 696,
      "pa": 697,
      "words": 698,
      "eng": 699,
      "little": 700,
      "Nay": 701,
      "those": 702,
      "though": 703,
      "reason": 704,
      "ought": 705,
      "first": 706,
      "Her": 707,
      "follow": 708,
      "die": 709,
      "eye": 710,
      "eunt": 711,
      "sent": 712,
      "ison": 713,
      "char": 714,
      "kill": 715,
      "best": 716,
      "himself": 717,
      "friends": 718,
      "Jo": 719,
      "ire": 720,
      "tem": 721,
      "Shall": 722,
      "ither": 723,
      "esar": 724,
      "ning": 725,
      "ud": 726,
      "after": 727,
      "vil": 728,
      "raw": 729,
      "Sc": 730,
      "bid": 731,
      "sor": 732,
      "med": 733,
      "wel": 734,
      "ship": 735,
      "vir": 736,
      "mind": 737,
      "mber": 738,
      "bed": 739,
      "ius": 740,
      "der": 741,
      "mother": 742,
      "fer": 743,
      "sle": 744,
      "Caesar": 745,
      "forth": 746,
      "play": 747,
      "EN": 748,
      "Have": 749,
      "present": 750,
      "ech": 751,
      "ench": 752,
      "grace": 753,
      "Br": 754,
      "Rome": 755,
      "thr": 756,
      "_Exeunt": 757,
      "clo": 758,
      "sand": 759,
      "II": 760,
      "Yet": 761,
      "gone": 762,
      "iness": 763,
      "against": 764,
      "esty": 765,
      "At": 766,
      "ste": 767,
      "sure": 768,
      "Not": 769,
      "band": 770,
      "thine": 771,
      "none": 772,
      "boy": 773,
      "cre": 774,
      "spir": 775,
      "tongue": 776,
      "Our": 777,
      "cer": 778,
      "Al": 779,
      "lack": 780,
      "ants": 781,
      "mean": 782,
      "Thy": 783,
      "aster": 784,
      "fellow": 785,
      "please": 786,
      "cle": 787,
      "dr": 788,
      "hus": 789,
      "over": 790,
      "ved": 791,
      "All": 792,
      "answer": 793,
      "ark": 794,
      "high": 795,
      "ctor": 796,
      "bus": 797,
      "else": 798,
      "lay": 799,
      "ati": 800,
      "stay": 801,
      "whose": 802,
      "ms": 803,
      "bring": 804,
      "once": 805,
      "ition": 806,
      "vice": 807,
      "car": 808,
      "get": 809,
      "child": 810,
      "vill": 811,
      "wrong": 812,
      "hor": 813,
      "unto": 814,
      "need": 815,
      "another": 816,
      "pos": 817,
      "ken": 818,
      "far": 819,
      "oud": 820,
      "ldi": 821,
      "hel": 822,
      "meet": 823,
      "law": 824,
      "letter": 825,
      "pleas": 826,
      "pet": 827,
      "cious": 828,
      "Ar": 829,
      "just": 830,
      "heard": 831,
      "crown": 832,
      "roy": 833,
      "faith": 834,
      "conf": 835,
      "uty": 836,
      "igh": 837,
      "pass": 838,
      "hed": 839,
      "sub": 840,
      "said": 841,
      "back": 842,
      "AC": 843,
      "gar": 844,
      "mes": 845,
      "has": 846,
      "peace": 847,
      "maid": 848,
      "Re": 849,
      "sm": 850,
      "sto": 851,
      "lau": 852,
      "about": 853,
      "Scene": 854,
      ",—": 855,
      "ES": 856,
      "pra": 857,
      "que": 858,
      "kn": 859,
      "matter": 860,
      "iss": 861,
      "selves": 862,
      "Un": 863,
      "count": 864,
      "fal": 865,
      "power": 866,
      "ried": 867,
      "France": 868,
      "Ri": 869,
      "ceive": 870,
      "gen": 871,
      "ister": 872,
      "enter": 873,
      "husband": 874,
      "bu": 875,
      "dou": 876,
      "ian": 877,
      "Anton": 878,
      "Up": 879,
      "hope": 880,
      "sen": 881,
      "last": 882,
      "came": 883,
      "gain": 884,
      "pose": 885,
      "ban": 886,
      "vis": 887,
      "wear": 888,
      "court": 889,
      "From": 890,
      "wind": 891,
      "Se": 892,
      "sword": 893,
      "hither": 894,
      "three": 895,
      "reme": 896,
      "makes": 897,
      "near": 898,
      "PH": 899,
      "hour": 900,
      "uf": 901,
      "joy": 902,
      "nature": 903,
      "cut": 904,
      "home": 905,
      "ER": 906,
      "ouch": 907,
      "indeed": 908,
      "dost": 909,
      "shame": 910,
      "earth": 911,
      "draw": 912,
      "cess": 913,
      "ost": 914,
      "ring": 915,
      "happ": 916,
      "pi": 917,
      "ury": 918,
      "hence": 919,
      "vy": 920,
      "thousand": 921,
      "virt": 922,
      "whom": 923,
      "va": 924,
      "sleep": 925,
      "Pro": 926,
      "state": 927,
      "air": 928,
      "gold": 929,
      "truth": 930,
      "false": 931,
      "even": 932,
      "gre": 933,
      "aint": 934,
      "Rich": 935,
      "lies": 936,
      "therefore": 937,
      "Upon": 938,
      "anger": 939,
      "vent": 940,
      "gods": 941,
      "AR": 942,
      "sing": 943,
      "lords": 944,
      "hands": 945,
      "Give": 946,
      "On": 947,
      "body": 948,
      "Are": 949,
      "wick": 950,
      "villain": 951,
      "lf": 952,
      "int": 953,
      "hn": 954,
      "pect": 955,
      "ousin": 956,
      "arms": 957,
      "ons": 958,
      "side": 959,
      "xt": 960,
      "break": 961,
      "John": 962,
      "Master": 963,
      "St": 964,
      "Some": 965,
      "cap": 966,
      "Eng": 967,
      "hum": 968,
      "worth": 969,
      "ran": 970,
      "rant": 971,
      "fect": 972,
      "sun": 973,
      "bea": 974,
      "spo": 975,
      "thank": 976,
      "things": 977,
      "ON": 978,
      "pati": 979,
      "Ed": 980,
      "youth": 981,
      "England": 982,
      "Lu": 983,
      "min": 984,
      "stri": 985,
      "ardon": 986,
      "fight": 987,
      "Que": 988,
      "ates": 989,
      "rep": 990,
      "without": 991,
      "tears": 992,
      "fire": 993,
      "ork": 994,
      "morrow": 995,
      "Queen": 996,
      "ious": 997,
      "ows": 998,
      "grief": 999,
      "hang": 1000,
      "ret": 1001,
      "madam": 1002,
      "Would": 1003,
      "gue": 1004,
      "seen": 1005,
      "TH": 1006,
      "within": 1007,
      "soldi": 1008,
      "while": 1009,
      "Hath": 1010,
      "enough": 1011,
      "Hen": 1012,
      "gentleman": 1013,
      "ls": 1014,
      "pen": 1015,
      "ween": 1016,
      "gether": 1017,
      "bt": 1018,
      "times": 1019,
      "Henry": 1020,
      "York": 1021,
      "ner": 1022,
      "run": 1023
    },
    "merges": [
      [
        "t",
        "h"
      ],
      [
        "o",
        "u"
      ],
      [
        "e",
        "r"
      ],
      [
        "i",
        "n"
      ],
      [
        "a",
        "n"
      ],
      [
        "th",
        "e"
      ],
      [
        "o",
        "r"
      ],
      [
        "i",
        "s"
      ],
      [
        "e",
        "n"
      ],
      [
        "a",
        "r"
      ],
      [
        "a",
        "t"
      ],
      [
        "o",
        "n"
      ],
      [
        "e",
        "s"
      ],
      [
        "l",
        "l"
      ],
      [
        "an",
        "d"
      ],
      [
        "t",
        "o"
      ],
      [
        "h",
        "e"
      ],
      [
        "s",
        "t"
      ],
      [
        "m",
        "e"
      ],
      [
        "y",
        "ou"
      ],
      [
        "o",
        "f"
      ],
      [
        "n",
        "o"
      ],
      [
        "h",
        "a"
      ],
      [
        "s",
        "e"
      ],
      [
        "r",
        "e"
      ],
      [
        "v",
        "e"
      ],
      [
        "i",
        "t"
      ],
      [
        "in",
        "g"
      ],
      [
        "l",
        "e"
      ],
      [
        "w",
        "i"
      ],
      [
        "b",
        "e"
      ],
      [
        "c",
        "h"
      ],
      [
        "c",
        "e"
      ],
      [
        "a",
        "s"
      ],
      [
        "o",
        "w"
      ],
      [
        "m",
        "y"
      ],
      [
        "e",
        "d"
      ],
      [
        "h",
        "i"
      ],
      [
        "f",
        "or"
      ],
      [
        "n",
        "d"
      ],
      [
        "l",
        "d"
      ],
      [
        "a",
        "y"
      ],
      [
        "er",
        "e"
      ],
      [
        "i",
        "r"
      ],
      [
        "o",
        "m"
      ],
      [
        "u",
        "t"
      ],
      [
        "T",
        "h"
      ],
      [
        "no",
        "t"
      ],
      [
        "g",
        "h"
      ],
      [
        "l",
        "i"
      ],
      [
        "th",
        "at"
      ],
      [
        "w",
        "e"
      ],
      [
        "k",
        "e"
      ],
      [
        "d",
        "e"
      ],
      [
        "o",
        "o"
      ],
      [
        "wi",
        "th"
      ],
      [
        "A",
        "nd"
      ],
      [
        "ou",
        "r"
      ],
      [
        "a",
        "l"
      ],
      [
        "t",
        "er"
      ],
      [
        "r",
        "i"
      ],
      [
        "u",
        "s"
      ],
      [
        "w",
        "h"
      ],
      [
        "en",
        "t"
      ],
      [
        "you",
        "r"
      ],
      [
        "a",
        "d"
      ],
      [
        "h",
        "is"
      ],
      [
        "s",
        "o"
      ],
      [
        "e",
        "t"
      ],
      [
        "a",
        "ll"
      ],
      [
        "th",
        "ou"
      ],
      [
        "r",
        "a"
      ],
      [
        "W",
        "h"
      ],
      [
        "th",
        "er"
      ],
      [
        "r",
        "o"
      ],
      [
        "d",
        "o"
      ],
      [
        "gh",
        "t"
      ],
      [
        "u",
        "r"
      ],
      [
        "hi",
        "m"
      ],
      [
        "l",
        "y"
      ],
      [
        "ha",
        "ve"
      ],
      [
        "th",
        "is"
      ],
      [
        "v",
        "er"
      ],
      [
        "u",
        "n"
      ],
      [
        "l",
        "o"
      ],
      [
        "es",
        "s"
      ],
      [
        "t",
        "i"
      ],
      [
        "a",
        "m"
      ],
      [
        "T",
        "he"
      ],
      [
        "ou",
        "ld"
      ],
      [
        "or",
        "d"
      ],
      [
        "m",
        "a"
      ],
      [
        "f",
        "e"
      ],
      [
        "i",
        "d"
      ],
      [
        "wi",
        "ll"
      ],
      [
        "es",
        "t"
      ],
      [
        "h",
        "er"
      ],
      [
        "ar",
        "e"
      ],
      [
        "a",
        "in"
      ],
      [
        "oo",
        "d"
      ],
      [
        "p",
        "e"
      ],
      [
        "c",
        "k"
      ],
      [
        "s",
        "ha"
      ],
      [
        "no",
        "w"
      ],
      [
        "n",
        "e"
      ],
      [
        "g",
        "e"
      ],
      [
        "f",
        "a"
      ],
      [
        "s",
        "u"
      ],
      [
        "o",
        "me"
      ],
      [
        "th",
        "y"
      ],
      [
        "en",
        "d"
      ],
      [
        "on",
        "e"
      ],
      [
        "b",
        "ut"
      ],
      [
        "m",
        "an"
      ],
      [
        "ar",
        "d"
      ],
      [
        "ar",
        "t"
      ],
      [
        "l",
        "a"
      ],
      [
        "p",
        "r"
      ],
      [
        "T",
        "o"
      ],
      [
        "the",
        "e"
      ],
      [
        "s",
        "h"
      ],
      [
        "r",
        "u"
      ],
      [
        "b",
        "y"
      ],
      [
        "sha",
        "ll"
      ],
      [
        "m",
        "or"
      ],
      [
        "Th",
        "at"
      ],
      [
        "i",
        "ll"
      ],
      [
        "c",
        "on"
      ],
      [
        "u",
        "p"
      ],
      [
        "i",
        "on"
      ],
      [
        "p",
        "o"
      ],
      [
        "g",
        "o"
      ],
      [
        "i",
        "ght"
      ],
      [
        "m",
        "o"
      ],
      [
        "r",
        "om"
      ],
      [
        "c",
        "om"
      ],
      [
        "in",
        "e"
      ],
      [
        "i",
        "l"
      ],
      [
        "t",
        "a"
      ],
      [
        "B",
        "ut"
      ],
      [
        "se",
        "l"
      ],
      [
        "m",
        "u"
      ],
      [
        "t",
        "e"
      ],
      [
        "ou",
        "s"
      ],
      [
        "q",
        "u"
      ],
      [
        "in",
        "d"
      ],
      [
        "an",
        "t"
      ],
      [
        "ow",
        "n"
      ],
      [
        "er",
        "s"
      ],
      [
        "b",
        "le"
      ],
      [
        "b",
        "o"
      ],
      [
        "i",
        "f"
      ],
      [
        "g",
        "ood"
      ],
      [
        "s",
        "he"
      ],
      [
        "ou",
        "t"
      ],
      [
        "hi",
        "ch"
      ],
      [
        "w",
        "as"
      ],
      [
        "on",
        "g"
      ],
      [
        "lo",
        "ve"
      ],
      [
        "w",
        "or"
      ],
      [
        "f",
        "rom"
      ],
      [
        "r",
        "y"
      ],
      [
        "c",
        "t"
      ],
      [
        "l",
        "ord"
      ],
      [
        "a",
        "k"
      ],
      [
        "v",
        "en"
      ],
      [
        "H",
        "e"
      ],
      [
        "wh",
        "at"
      ],
      [
        "h",
        "o"
      ],
      [
        "E",
        "n"
      ],
      [
        "b",
        "l"
      ],
      [
        "w",
        "ould"
      ],
      [
        "s",
        "a"
      ],
      [
        "F",
        "or"
      ],
      [
        "mor",
        "e"
      ],
      [
        "Wh",
        "at"
      ],
      [
        "k",
        "now"
      ],
      [
        "a",
        "st"
      ],
      [
        "i",
        "ve"
      ],
      [
        "the",
        "m"
      ],
      [
        "c",
        "an"
      ],
      [
        "the",
        "ir"
      ],
      [
        "at",
        "e"
      ],
      [
        "le",
        "t"
      ],
      [
        "sel",
        "f"
      ],
      [
        "a",
        "p"
      ],
      [
        "i",
        "e"
      ],
      [
        "we",
        "ll"
      ],
      [
        "c",
        "ome"
      ],
      [
        "en",
        "ce"
      ],
      [
        "se",
        "e"
      ],
      [
        "th",
        "ere"
      ],
      [
        "the",
        "y"
      ],
      [
        "a",
        "th"
      ],
      [
        "u",
        "l"
      ],
      [
        "e",
        "p"
      ],
      [
        "li",
        "ke"
      ],
      [
        "th",
        "an"
      ],
      [
        "a",
        "g"
      ],
      [
        "in",
        "k"
      ],
      [
        "u",
        "re"
      ],
      [
        "for",
        "e"
      ],
      [
        "s",
        "ay"
      ],
      [
        "p",
        "er"
      ],
      [
        "s",
        "i"
      ],
      [
        "v",
        "es"
      ],
      [
        "the",
        "n"
      ],
      [
        "I",
        "f"
      ],
      [
        "s",
        "ir"
      ],
      [
        "h",
        "ere"
      ],
      [
        "Y",
        "ou"
      ],
      [
        "a",
        "ve"
      ],
      [
        "M",
        "y"
      ],
      [
        "En",
        "ter"
      ],
      [
        "t",
        "ru"
      ],
      [
        "is",
        "h"
      ],
      [
        "i",
        "th"
      ],
      [
        "an",
        "ce"
      ],
      [
        "ha",
        "th"
      ],
      [
        "a",
        "u"
      ],
      [
        "th",
        "ing"
      ],
      [
        "W",
        "e"
      ],
      [
        "s",
        "pe"
      ],
      [
        "ou",
        "nd"
      ],
      [
        "p",
        "ro"
      ],
      [
        "re",
        "at"
      ],
      [
        "u",
        "e"
      ],
      [
        "to",
        "o"
      ],
      [
        "oo",
        "k"
      ],
      [
        "p",
        "le"
      ],
      [
        "A",
        "s"
      ],
      [
        "m",
        "ay"
      ],
      [
        "w",
        "ay"
      ],
      [
        "sh",
        "ould"
      ],
      [
        "w",
        "ere"
      ],
      [
        "d",
        "id"
      ],
      [
        "B",
        "e"
      ],
      [
        "d",
        "is"
      ],
      [
        "ma",
        "ke"
      ],
      [
        "ar",
        "s"
      ],
      [
        "r",
        "ow"
      ],
      [
        "up",
        "on"
      ],
      [
        "s",
        "p"
      ],
      [
        "so",
        "me"
      ],
      [
        "c",
        "o"
      ],
      [
        "w",
        "hich"
      ],
      [
        "mu",
        "st"
      ],
      [
        "N",
        "o"
      ],
      [
        "c",
        "i"
      ],
      [
        "u",
        "m"
      ],
      [
        "m",
        "en"
      ],
      [
        "it",
        "y"
      ],
      [
        "ver",
        "y"
      ],
      [
        "v",
        "i"
      ],
      [
        "ha",
        "d"
      ],
      [
        "d",
        "i"
      ],
      [
        "ou",
        "n"
      ],
      [
        "I",
        "n"
      ],
      [
        "G",
        "o"
      ],
      [
        "o",
        "ther"
      ],
      [
        "w",
        "ord"
      ],
      [
        "h",
        "on"
      ],
      [
        "su",
        "ch"
      ],
      [
        "h",
        "and"
      ],
      [
        "e",
        "x"
      ],
      [
        "e",
        "y"
      ],
      [
        "f",
        "i"
      ],
      [
        "he",
        "art"
      ],
      [
        "th",
        "ink"
      ],
      [
        "d",
        "ay"
      ],
      [
        "ti",
        "on"
      ],
      [
        "Th",
        "ou"
      ],
      [
        "o",
        "se"
      ],
      [
        "wh",
        "en"
      ],
      [
        "K",
        "ing"
      ],
      [
        "p",
        "l"
      ],
      [
        "i",
        "m"
      ],
      [
        "a",
        "me"
      ],
      [
        "Th",
        "is"
      ],
      [
        "ti",
        "me"
      ],
      [
        "y",
        "et"
      ],
      [
        "an",
        "s"
      ],
      [
        "a",
        "f"
      ],
      [
        "ag",
        "ain"
      ],
      [
        "is",
        "e"
      ],
      [
        "n",
        "ess"
      ],
      [
        "spe",
        "ak"
      ],
      [
        "e",
        "l"
      ],
      [
        "mo",
        "st"
      ],
      [
        "ll",
        "ow"
      ],
      [
        "an",
        "g"
      ],
      [
        "a",
        "c"
      ],
      [
        "s",
        "we"
      ],
      [
        "t",
        "r"
      ],
      [
        "f",
        "o"
      ],
      [
        "f",
        "ri"
      ],
      [
        "ur",
        "n"
      ],
      [
        "a",
        "b"
      ],
      [
        "the",
        "se"
      ],
      [
        "k",
        "ing"
      ],
      [
        "ta",
        "ke"
      ],
      [
        "an",
        "y"
      ],
      [
        "b",
        "re"
      ],
      [
        "fa",
        "ther"
      ],
      [
        "W",
        "ith"
      ],
      [
        "O",
        "f"
      ],
      [
        "S",
        "o"
      ],
      [
        "h",
        "ow"
      ],
      [
        "g",
        "ive"
      ],
      [
        "m",
        "ine"
      ],
      [
        "Wh",
        "y"
      ],
      [
        "a",
        "ge"
      ],
      [
        "w",
        "o"
      ],
      [
        "n",
        "ight"
      ],
      [
        "A",
        "n"
      ],
      [
        "ad",
        "y"
      ],
      [
        "d",
        "es"
      ],
      [
        "g",
        "reat"
      ],
      [
        "m",
        "ar"
      ],
      [
        "e",
        "m"
      ],
      [
        "l",
        "and"
      ],
      [
        "c",
        "es"
      ],
      [
        "f",
        "ul"
      ],
      [
        "b",
        "r"
      ],
      [
        "fa",
        "ir"
      ],
      [
        "te",
        "ll"
      ],
      [
        "a",
        "se"
      ],
      [
        "of",
        "f"
      ],
      [
        "e",
        "ar"
      ],
      [
        "g",
        "ra"
      ],
      [
        "wh",
        "ere"
      ],
      [
        "in",
        "ce"
      ],
      [
        "fri",
        "end"
      ],
      [
        "H",
        "ow"
      ],
      [
        "s",
        "er"
      ],
      [
        "b",
        "ro"
      ],
      [
        "p",
        "art"
      ],
      [
        "b",
        "er"
      ],
      [
        "t",
        "y"
      ],
      [
        "Th",
        "ere"
      ],
      [
        "g",
        "n"
      ],
      [
        "g",
        "ent"
      ],
      [
        "he",
        "ar"
      ],
      [
        "t",
        "s"
      ],
      [
        "I",
        "t"
      ],
      [
        "mu",
        "ch"
      ],
      [
        "he",
        "a"
      ],
      [
        "as",
        "s"
      ],
      [
        "at",
        "ion"
      ],
      [
        "st",
        "r"
      ],
      [
        "ar",
        "m"
      ],
      [
        "m",
        "is"
      ],
      [
        "bl",
        "ood"
      ],
      [
        "ne",
        "ver"
      ],
      [
        "s",
        "c"
      ],
      [
        "W",
        "hich"
      ],
      [
        "l",
        "ook"
      ],
      [
        "re",
        "e"
      ],
      [
        "u",
        "nd"
      ],
      [
        "i",
        "es"
      ],
      [
        "L",
        "et"
      ],
      [
        "u",
        "ll"
      ],
      [
        "or",
        "t"
      ],
      [
        "f",
        "l"
      ],
      [
        "m",
        "ent"
      ],
      [
        "s",
        "on"
      ],
      [
        "u",
        "st"
      ],
      [
        "de",
        "ath"
      ],
      [
        "t",
        "le"
      ],
      [
        "hon",
        "our"
      ],
      [
        "l",
        "ess"
      ],
      [
        "li",
        "fe"
      ],
      [
        "it",
        "e"
      ],
      [
        "l",
        "t"
      ],
      [
        "c",
        "oun"
      ],
      [
        "w",
        "r"
      ],
      [
        "t",
        "ain"
      ],
      [
        "Wh",
        "en"
      ],
      [
        "w",
        "ard"
      ],
      [
        "a",
        "ce"
      ],
      [
        "D",
        "o"
      ],
      [
        "B",
        "y"
      ],
      [
        "C",
        "ome"
      ],
      [
        "I",
        "s"
      ],
      [
        "e",
        "ver"
      ],
      [
        "ou",
        "l"
      ],
      [
        "be",
        "t"
      ],
      [
        "p",
        "re"
      ],
      [
        "gent",
        "le"
      ],
      [
        "m",
        "on"
      ],
      [
        "st",
        "er"
      ],
      [
        "re",
        "d"
      ],
      [
        "ha",
        "st"
      ],
      [
        "do",
        "th"
      ],
      [
        "m",
        "er"
      ],
      [
        "o",
        "ld"
      ],
      [
        "O",
        "r"
      ],
      [
        "ou",
        "gh"
      ],
      [
        "S",
        "ir"
      ],
      [
        "li",
        "e"
      ],
      [
        "Wh",
        "ere"
      ],
      [
        "c",
        "all"
      ],
      [
        "E",
        "x"
      ],
      [
        "st",
        "and"
      ],
      [
        "c",
        "our"
      ],
      [
        "f",
        "oo"
      ],
      [
        "t",
        "end"
      ],
      [
        "ou",
        "se"
      ],
      [
        "p",
        "p"
      ],
      [
        "L",
        "ord"
      ],
      [
        "N",
        "ow"
      ],
      [
        "t",
        "is"
      ],
      [
        "ma",
        "de"
      ],
      [
        "un",
        "t"
      ],
      [
        "fe",
        "ar"
      ],
      [
        "a",
        "ch"
      ],
      [
        "or",
        "n"
      ],
      [
        "se",
        "d"
      ],
      [
        "Go",
        "d"
      ],
      [
        "i",
        "o"
      ],
      [
        "en",
        "e"
      ],
      [
        "he",
        "ad"
      ],
      [
        "w",
        "om"
      ],
      [
        "tru",
        "e"
      ],
      [
        "wh",
        "o"
      ],
      [
        "c",
        "he"
      ],
      [
        "i",
        "c"
      ],
      [
        "hea",
        "ven"
      ],
      [
        "M",
        "ar"
      ],
      [
        "n",
        "or"
      ],
      [
        "swe",
        "et"
      ],
      [
        "v",
        "ing"
      ],
      [
        "ne",
        "w"
      ],
      [
        "ey",
        "es"
      ],
      [
        "ho",
        "ld"
      ],
      [
        "U",
        "S"
      ],
      [
        "can",
        "not"
      ],
      [
        "g",
        "l"
      ],
      [
        "u",
        "ke"
      ],
      [
        "on",
        "d"
      ],
      [
        "be",
        "en"
      ],
      [
        "r",
        "own"
      ],
      [
        "p",
        "ri"
      ],
      [
        "p",
        "la"
      ],
      [
        "m",
        "ad"
      ],
      [
        "pr",
        "ay"
      ],
      [
        "p",
        "t"
      ],
      [
        "r",
        "es"
      ],
      [
        "le",
        "d"
      ],
      [
        "Th",
        "en"
      ],
      [
        "wor",
        "ld"
      ],
      [
        "v",
        "o"
      ],
      [
        "H",
        "ere"
      ],
      [
        "pr",
        "es"
      ],
      [
        "b",
        "a"
      ],
      [
        "for",
        "t"
      ],
      [
        "s",
        "hi"
      ],
      [
        "thou",
        "ght"
      ],
      [
        "l",
        "ong"
      ],
      [
        "f",
        "ir"
      ],
      [
        "bro",
        "ther"
      ],
      [
        "be",
        "ar"
      ],
      [
        "Y",
        "our"
      ],
      [
        "g",
        "u"
      ],
      [
        "d",
        "one"
      ],
      [
        "i",
        "ce"
      ],
      [
        "t",
        "urn"
      ],
      [
        "ow",
        "er"
      ],
      [
        "d",
        "own"
      ],
      [
        "b",
        "ra"
      ],
      [
        "t",
        "ri"
      ],
      [
        "t",
        "ra"
      ],
      [
        "p",
        "ut"
      ],
      [
        "or",
        "e"
      ],
      [
        "gh",
        "ter"
      ],
      [
        "li",
        "ve"
      ],
      [
        "m",
        "ight"
      ],
      [
        "t",
        "wo"
      ],
      [
        "a",
        "ble"
      ],
      [
        "Wh",
        "o"
      ],
      [
        "n",
        "ame"
      ],
      [
        "w",
        "ar"
      ],
      [
        "d",
        "s"
      ],
      [
        "h",
        "ouse"
      ],
      [
        "l",
        "es"
      ],
      [
        "no",
        "ble"
      ],
      [
        "a",
        "way"
      ],
      [
        "i",
        "gn"
      ],
      [
        "be",
        "fore"
      ],
      [
        "s",
        "s"
      ],
      [
        "D",
        "uke"
      ],
      [
        "d",
        "y"
      ],
      [
        "at",
        "ter"
      ],
      [
        "li",
        "ght"
      ],
      [
        "com",
        "es"
      ],
      [
        "A",
        "N"
      ],
      [
        "S",
        "he"
      ],
      [
        "k",
        "es"
      ],
      [
        "se",
        "t"
      ],
      [
        "j",
        "o"
      ],
      [
        "le",
        "ave"
      ],
      [
        "F",
        "r"
      ],
      [
        "T",
        "is"
      ],
      [
        "e",
        "f"
      ],
      [
        "th",
        "us"
      ],
      [
        "k",
        "s"
      ],
      [
        "p",
        "s"
      ],
      [
        "t",
        "ed"
      ],
      [
        "de",
        "ed"
      ],
      [
        "t",
        "on"
      ],
      [
        "p",
        "ur"
      ],
      [
        "_",
        "Ex"
      ],
      [
        "P",
        "r"
      ],
      [
        "a",
        "ke"
      ],
      [
        "g",
        "r"
      ],
      [
        "t",
        "en"
      ],
      [
        "ing",
        "s"
      ],
      [
        "C",
        "a"
      ],
      [
        "g",
        "i"
      ],
      [
        "c",
        "ould"
      ],
      [
        "an",
        "ge"
      ],
      [
        "c",
        "ha"
      ],
      [
        "l",
        "ady"
      ],
      [
        "The",
        "y"
      ],
      [
        "H",
        "is"
      ],
      [
        "c",
        "au"
      ],
      [
        "re",
        "as"
      ],
      [
        "y",
        "e"
      ],
      [
        "S",
        "ha"
      ],
      [
        "s",
        "oul"
      ],
      [
        "in",
        "to"
      ],
      [
        "po",
        "or"
      ],
      [
        "f",
        "ind"
      ],
      [
        "u",
        "se"
      ],
      [
        "sh",
        "ow"
      ],
      [
        "foo",
        "l"
      ],
      [
        "A",
        "y"
      ],
      [
        "w",
        "it"
      ],
      [
        "be",
        "ing"
      ],
      [
        "bet",
        "ter"
      ],
      [
        "i",
        "ck"
      ],
      [
        "n",
        "at"
      ],
      [
        "o",
        "l"
      ],
      [
        "t",
        "ent"
      ],
      [
        "w",
        "er"
      ],
      [
        "l",
        "it"
      ],
      [
        "ke",
        "ep"
      ],
      [
        "de",
        "ad"
      ],
      [
        "ri",
        "ght"
      ],
      [
        "i",
        "ld"
      ],
      [
        "bo",
        "th"
      ],
      [
        "f",
        "t"
      ],
      [
        "es",
        "e"
      ],
      [
        "c",
        "l"
      ],
      [
        "o",
        "p"
      ],
      [
        "c",
        "y"
      ],
      [
        "c",
        "tion"
      ],
      [
        "und",
        "er"
      ],
      [
        "man",
        "y"
      ],
      [
        "r",
        "est"
      ],
      [
        "un",
        "e"
      ],
      [
        "com",
        "p"
      ],
      [
        "c",
        "ur"
      ],
      [
        "ma",
        "ster"
      ],
      [
        "or",
        "s"
      ],
      [
        "f",
        "ull"
      ],
      [
        "in",
        "s"
      ],
      [
        "n",
        "g"
      ],
      [
        "au",
        "ghter"
      ],
      [
        "de",
        "ar"
      ],
      [
        "w",
        "hi"
      ],
      [
        "p",
        "h"
      ],
      [
        "st",
        "ill"
      ],
      [
        "cau",
        "se"
      ],
      [
        "e",
        "very"
      ],
      [
        "G",
        "ood"
      ],
      [
        "no",
        "thing"
      ],
      [
        "g",
        "ri"
      ],
      [
        "W",
        "ill"
      ],
      [
        "at",
        "ch"
      ],
      [
        "pla",
        "ce"
      ],
      [
        "N",
        "or"
      ],
      [
        "wi",
        "fe"
      ],
      [
        "p",
        "ar"
      ],
      [
        "be",
        "g"
      ],
      [
        "d",
        "en"
      ],
      [
        "We",
        "ll"
      ],
      [
        "tr",
        "ess"
      ],
      [
        "our",
        "s"
      ],
      [
        "d",
        "aughter"
      ],
      [
        "my",
        "self"
      ],
      [
        "k",
        "ind"
      ],
      [
        "u",
        "ck"
      ],
      [
        "t",
        "al"
      ],
      [
        "re",
        "ad"
      ],
      [
        "wom",
        "an"
      ],
      [
        "fa",
        "ce"
      ],
      [
        "t",
        "ong"
      ],
      [
        "Th",
        "an"
      ],
      [
        "ie",
        "ld"
      ],
      [
        "you",
        "ng"
      ],
      [
        "j",
        "e"
      ],
      [
        "ti",
        "ll"
      ],
      [
        "R",
        "o"
      ],
      [
        "O",
        "F"
      ],
      [
        "com",
        "m"
      ],
      [
        "f",
        "all"
      ],
      [
        "it",
        "s"
      ],
      [
        "p",
        "a"
      ],
      [
        "word",
        "s"
      ],
      [
        "en",
        "g"
      ],
      [
        "lit",
        "tle"
      ],
      [
        "N",
        "ay"
      ],
      [
        "th",
        "ose"
      ],
      [
        "thou",
        "gh"
      ],
      [
        "reas",
        "on"
      ],
      [
        "ou",
        "ght"
      ],
      [
        "fir",
        "st"
      ],
      [
        "H",
        "er"
      ],
      [
        "fo",
        "llow"
      ],
      [
        "d",
        "ie"
      ],
      [
        "ey",
        "e"
      ],
      [
        "e",
        "unt"
      ],
      [
        "s",
        "ent"
      ],
      [
        "is",
        "on"
      ],
      [
        "ch",
        "ar"
      ],
      [
        "k",
        "ill"
      ],
      [
        "b",
        "est"
      ],
      [
        "him",
        "self"
      ],
      [
        "friend",
        "s"
      ],
      [
        "J",
        "o"
      ],
      [
        "i",
        "re"
      ],
      [
        "te",
        "m"
      ],
      [
        "Sha",
        "ll"
      ],
      [
        "i",
        "ther"
      ],
      [
        "es",
        "ar"
      ],
      [
        "n",
        "ing"
      ],
      [
        "u",
        "d"
      ],
      [
        "af",
        "ter"
      ],
      [
        "v",
        "il"
      ],
      [
        "ra",
        "w"
      ],
      [
        "S",
        "c"
      ],
      [
        "b",
        "id"
      ],
      [
        "s",
        "or"
      ],
      [
        "me",
        "d"
      ],
      [
        "we",
        "l"
      ],
      [
        "shi",
        "p"
      ],
      [
        "v",
        "ir"
      ],
      [
        "m",
        "ind"
      ],
      [
        "m",
        "ber"
      ],
      [
        "be",
        "d"
      ],
      [
        "i",
        "us"
      ],
      [
        "d",
        "er"
      ],
      [
        "mo",
        "ther"
      ],
      [
        "f",
        "er"
      ],
      [
        "s",
        "le"
      ],
      [
        "Ca",
        "esar"
      ],
      [
        "for",
        "th"
      ],
      [
        "pl",
        "ay"
      ],
      [
        "E",
        "N"
      ],
      [
        "H",
        "ave"
      ],
      [
        "pres",
        "ent"
      ],
      [
        "e",
        "ch"
      ],
      [
        "en",
        "ch"
      ],
      [
        "gra",
        "ce"
      ],
      [
        "B",
        "r"
      ],
      [
        "R",
        "ome"
      ],
      [
        "th",
        "r"
      ],
      [
        "_Ex",
        "eunt"
      ],
      [
        "c",
        "lo"
      ],
      [
        "s",
        "and"
      ],
      [
        "I",
        "I"
      ],
      [
        "Y",
        "et"
      ],
      [
        "g",
        "one"
      ],
      [
        "in",
        "ess"
      ],
      [
        "again",
        "st"
      ],
      [
        "est",
        "y"
      ],
      [
        "A",
        "t"
      ],
      [
        "st",
        "e"
      ],
      [
        "su",
        "re"
      ],
      [
        "No",
        "t"
      ],
      [
        "b",
        "and"
      ],
      [
        "th",
        "ine"
      ],
      [
        "n",
        "one"
      ],
      [
        "bo",
        "y"
      ],
      [
        "c",
        "re"
      ],
      [
        "sp",
        "ir"
      ],
      [
        "tong",
        "ue"
      ],
      [
        "O",
        "ur"
      ],
      [
        "c",
        "er"
      ],
      [
        "A",
        "l"
      ],
      [
        "la",
        "ck"
      ],
      [
        "ant",
        "s"
      ],
      [
        "me",
        "an"
      ],
      [
        "Th",
        "y"
      ],
      [
        "ast",
        "er"
      ],
      [
        "fe",
        "llow"
      ],
      [
        "ple",
        "ase"
      ],
      [
        "c",
        "le"
      ],
      [
        "d",
        "r"
      ],
      [
        "h",
        "us"
      ],
      [
        "o",
        "ver"
      ],
      [
        "ve",
        "d"
      ],
      [
        "A",
        "ll"
      ],
      [
        "ans",
        "wer"
      ],
      [
        "ar",
        "k"
      ],
      [
        "hi",
        "gh"
      ],
      [
        "ct",
        "or"
      ],
      [
        "b",
        "us"
      ],
      [
        "el",
        "se"
      ],
      [
        "l",
        "ay"
      ],
      [
        "at",
        "i"
      ],
      [
        "st",
        "ay"
      ],
      [
        "wh",
        "ose"
      ],
      [
        "m",
        "s"
      ],
      [
        "br",
        "ing"
      ],
      [
        "on",
        "ce"
      ],
      [
        "it",
        "ion"
      ],
      [
        "vi",
        "ce"
      ],
      [
        "c",
        "ar"
      ],
      [
        "g",
        "et"
      ],
      [
        "ch",
        "ild"
      ],
      [
        "v",
        "ill"
      ],
      [
        "wr",
        "ong"
      ],
      [
        "h",
        "or"
      ],
      [
        "un",
        "to"
      ],
      [
        "ne",
        "ed"
      ],
      [
        "an",
        "other"
      ],
      [
        "po",
        "s"
      ],
      [
        "k",
        "en"
      ],
      [
        "f",
        "ar"
      ],
      [
        "ou",
        "d"
      ],
      [
        "ld",
        "i"
      ],
      [
        "he",
        "l"
      ],
      [
        "me",
        "et"
      ],
      [
        "la",
        "w"
      ],
      [
        "let",
        "ter"
      ],
      [
        "ple",
        "as"
      ],
      [
        "p",
        "et"
      ],
      [
        "ci",
        "ous"
      ],
      [
        "A",
        "r"
      ],
      [
        "j",
        "ust"
      ],
      [
        "he",
        "ard"
      ],
      [
        "c",
        "rown"
      ],
      [
        "ro",
        "y"
      ],
      [
        "fa",
        "ith"
      ],
      [
        "con",
        "f"
      ],
      [
        "ut",
        "y"
      ],
      [
        "i",
        "gh"
      ],
      [
        "p",
        "ass"
      ],
      [
        "he",
        "d"
      ],
      [
        "su",
        "b"
      ],
      [
        "sa",
        "id"
      ],
      [
        "ba",
        "ck"
      ],
      [
        "A",
        "C"
      ],
      [
        "g",
        "ar"
      ],
      [
        "m",
        "es"
      ],
      [
        "ha",
        "s"
      ],
      [
        "pe",
        "ace"
      ],
      [
        "ma",
        "id"
      ],
      [
        "R",
        "e"
      ],
      [
        "s",
        "m"
      ],
      [
        "s",
        "to"
      ],
      [
        "la",
        "u"
      ],
      [
        "ab",
        "out"
      ],
      [
        "Sc",
        "ene"
      ],
      [
        ",",
        "—"
      ],
      [
        "E",
        "S"
      ],
      [
        "p",
        "ra"
      ],
      [
        "qu",
        "e"
      ],
      [
        "k",
        "n"
      ],
      [
        "m",
        "atter"
      ],
      [
        "is",
        "s"
      ],
      [
        "sel",
        "ves"
      ],
      [
        "U",
        "n"
      ],
      [
        "coun",
        "t"
      ],
      [
        "f",
        "al"
      ],
      [
        "p",
        "ower"
      ],
      [
        "ri",
        "ed"
      ],
      [
        "Fr",
        "ance"
      ],
      [
        "R",
        "i"
      ],
      [
        "ce",
        "ive"
      ],
      [
        "g",
        "en"
      ],
      [
        "is",
        "ter"
      ],
      [
        "en",
        "ter"
      ],
      [
        "hus",
        "band"
      ],
      [
        "b",
        "u"
      ],
      [
        "d",
        "ou"
      ],
      [
        "i",
        "an"
      ],
      [
        "An",
        "ton"
      ],
      [
        "U",
        "p"
      ],
      [
        "ho",
        "pe"
      ],
      [
        "s",
        "en"
      ],
      [
        "la",
        "st"
      ],
      [
        "c",
        "ame"
      ],
      [
        "g",
        "ain"
      ],
      [
        "po",
        "se"
      ],
      [
        "b",
        "an"
      ],
      [
        "v",
        "is"
      ],
      [
        "we",
        "ar"
      ],
      [
        "cour",
        "t"
      ],
      [
        "F",
        "rom"
      ],
      [
        "w",
        "ind"
      ],
      [
        "S",
        "e"
      ],
      [
        "s",
        "word"
      ],
      [
        "hi",
        "ther"
      ],
      [
        "th",
        "ree"
      ],
      [
        "re",
        "me"
      ],
      [
        "ma",
        "kes"
      ],
      [
        "ne",
        "ar"
      ],
      [
        "P",
        "H"
      ],
      [
        "h",
        "our"
      ],
      [
        "u",
        "f"
      ],
      [
        "jo",
        "y"
      ],
      [
        "nat",
        "ure"
      ],
      [
        "c",
        "ut"
      ],
      [
        "h",
        "ome"
      ],
      [
        "E",
        "R"
      ],
      [
        "ou",
        "ch"
      ],
      [
        "in",
        "deed"
      ],
      [
        "do",
        "st"
      ],
      [
        "sha",
        "me"
      ],
      [
        "ear",
        "th"
      ],
      [
        "d",
        "raw"
      ],
      [
        "c",
        "ess"
      ],
      [
        "o",
        "st"
      ],
      [
        "r",
        "ing"
      ],
      [
        "ha",
        "pp"
      ],
      [
        "p",
        "i"
      ],
      [
        "ur",
        "y"
      ],
      [
        "h",
        "ence"
      ],
      [
        "v",
        "y"
      ],
      [
        "thou",
        "sand"
      ],
      [
        "vir",
        "t"
      ],
      [
        "wh",
        "om"
      ],
      [
        "v",
        "a"
      ],
      [
        "sle",
        "ep"
      ],
      [
        "P",
        "ro"
      ],
      [
        "st",
        "ate"
      ],
      [
        "a",
        "ir"
      ],
      [
        "go",
        "ld"
      ],
      [
        "tru",
        "th"
      ],
      [
        "fal",
        "se"
      ],
      [
        "e",
        "ven"
      ],
      [
        "g",
        "re"
      ],
      [
        "ain",
        "t"
      ],
      [
        "Ri",
        "ch"
      ],
      [
        "li",
        "es"
      ],
      [
        "there",
        "fore"
      ],
      [
        "Up",
        "on"
      ],
      [
        "ang",
        "er"
      ],
      [
        "v",
        "ent"
      ],
      [
        "go",
        "ds"
      ],
      [
        "A",
        "R"
      ],
      [
        "s",
        "ing"
      ],
      [
        "lord",
        "s"
      ],
      [
        "hand",
        "s"
      ],
      [
        "G",
        "ive"
      ],
      [
        "O",
        "n"
      ],
      [
        "bo",
        "dy"
      ],
      [
        "A",
        "re"
      ],
      [
        "wi",
        "ck"
      ],
      [
        "vill",
        "ain"
      ],
      [
        "l",
        "f"
      ],
      [
        "in",
        "t"
      ],
      [
        "h",
        "n"
      ],
      [
        "pe",
        "ct"
      ],
      [
        "ous",
        "in"
      ],
      [
        "arm",
        "s"
      ],
      [
        "on",
        "s"
      ],
      [
        "si",
        "de"
      ],
      [
        "x",
        "t"
      ],
      [
        "bre",
        "ak"
      ],
      [
        "Jo",
        "hn"
      ],
      [
        "M",
        "aster"
      ],
      [
        "S",
        "t"
      ],
      [
        "S",
        "ome"
      ],
      [
        "c",
        "ap"
      ],
      [
        "En",
        "g"
      ],
      [
        "h",
        "um"
      ],
      [
        "wor",
        "th"
      ],
      [
        "r",
        "an"
      ],
      [
        "r",
        "ant"
      ],
      [
        "fe",
        "ct"
      ],
      [
        "s",
        "un"
      ],
      [
        "be",
        "a"
      ],
      [
        "s",
        "po"
      ],
      [
        "than",
        "k"
      ],
      [
        "thing",
        "s"
      ],
      [
        "O",
        "N"
      ],
      [
        "p",
        "ati"
      ],
      [
        "E",
        "d"
      ],
      [
        "you",
        "th"
      ],
      [
        "Eng",
        "land"
      ],
      [
        "L",
        "u"
      ],
      [
        "m",
        "in"
      ],
      [
        "st",
        "ri"
      ],
      [
        "ard",
        "on"
      ],
      [
        "f",
        "ight"
      ],
      [
        "Q",
        "ue"
      ],
      [
        "at",
        "es"
      ],
      [
        "re",
        "p"
      ],
      [
        "with",
        "out"
      ],
      [
        "te",
        "ars"
      ],
      [
        "fi",
        "re"
      ],
      [
        "or",
        "k"
      ],
      [
        "mor",
        "row"
      ],
      [
        "Que",
        "en"
      ],
      [
        "i",
        "ous"
      ],
      [
        "ow",
        "s"
      ],
      [
        "gri",
        "ef"
      ],
      [
        "h",
        "ang"
      ],
      [
        "re",
        "t"
      ],
      [
        "mad",
        "am"
      ],
      [
        "W",
        "ould"
      ],
      [
        "g",
        "ue"
      ],
      [
        "se",
        "en"
      ],
      [
        "T",
        "H"
      ],
      [
        "with",
        "in"
      ],
      [
        "so",
        "ldi"
      ],
      [
        "whi",
        "le"
      ],
      [
        "H",
        "ath"
      ],
      [
        "en",
        "ough"
      ],
      [
        "H",
        "en"
      ],
      [
        "gentle",
        "man"
      ],
      [
        "l",
        "s"
      ],
      [
        "p",
        "en"
      ],
      [
        "we",
        "en"
      ],
      [
        "ge",
        "ther"
      ],
      [
        "b",
        "t"
      ],
      [
        "ti",
        "mes"
      ],
      [
        "Hen",
        "ry"
      ],
      [
        "Y",
        "ork"
      ],
      [
        "n",
        "er"
      ],
      [
        "r",
        "un"
      ]
    ]
  }
}